0001111000000110110001110101111101011001100100000100010011100011010001111110010011000011001101110101010111010111100100111011100101
1101101000101111011010010101000000100101111100101111101111010100111101011111000101110011101100100100111000010110110100011111010111
0011110001101111100100000111000111110101101110111001111111100110111011101110011010100111101011111110011110010111110000101101000101
0001111001001110110111101010000000000011110101111010100100001010000010100011110110111110010010110000100010010000001001001111011110
0011101111100011010010001111000110000001001011111001101001010000010011100001101110111010100000001000000000101110110000010101011001
0111001010010101100111011111111011111010110111001110100010111111001110111101000100001011001011111001110111010011100111100010110010
0000111110001111011111110100111001110000100101100011110001010110000110101011010110011111111010000011111010010010100101111001101101
0110101000101110111111000010110011001100000001011100010010100100010110100000011110110011001011011000000110001100101011010100011011
0001001011001011100011001101010100100110111001110011111001101000001101000010110110001101111110011001001111001000101011011010110001
1110000101111101001110100101010111010001011110000000001000011011100000011111100010101100000100001111010001001001110100101111011010
0111010101101011101001000010010100000001110100110100100001101100101101110011101000100110101100110111010010111110110010111100010110
0101000100000100011011011111000000110010000110101110111011101110010001101000011000011000010011000011010000010010011000000010101000
0011100100011011101111001000010101111011110110011010101111010001100111111110110111101110100100011111011100001001000011000101100000
1101000111100011110111000100010110110101111110010000010011110110110011011000100111111111001001101011111011001000010100111011110110
0111011001000010011111010001111010001000100011011001110010000011001101011100000100100001000110001101101110100010001111111011010111
0010100000001010001011011111011011011010100111001001111101110000111010011011110100000000000110111011000111000010100110111010011101
0111011010011111111011100010011100100000100010010110000110011001010010110011110000010111101100000000100011110011000011111100100101
0001111111111001011000000010010110000101011011100101001111100010010001001100110011001011010110010000000110110110100110010000111100
0110000000101010000100110111111010010101100101001010011110011011110110011010111111100010010001011010100110010011101001011100010010
1101011110011110101001100000000010110000111100001100001111011001011000001110000010001000110100010010101101000110111010001010100111
1110001111000100100100011001100100000001100111100011011100011110110111100110010110100110110101100000101011111111100001110111010011
1010101111001011111100110010000110001011110000111110010101001100100110011010110000101011100111111100100011001001101000101001110000
0001110010101111101100011110001110000001010011001011111010011000011001000011110100010100111111011110101111010010001101111100111100
0110101011110100100010000111100011010111011001001111001011000000111011111110001001001101001111011010110011110100100001011111010110
1101000101011001101110110111111101110110110001100000101000100010100011010011001110000000010111100110111001000001111010100001000010
1101100111001010100010111111000101001110011101001011100011011100100011000010010110110000001010100001001000111000111000011111000110
1011001011001100100100010011111001011101110100000010110100001110100100100110111100111111101010111101111110111101010010111100010110
1110100111001100100111000101111110011010011111000101110011011000100000000100011111100001011111110111110001010010001010010110110001
1010010111001111100011011001000100001110100110111111011101110111100100101001001011101111010111010000010110010000101010001100000011
0110000010101001101011001000111000110111101110111110010101001100111001000011111000110100101110000011111100001011001100110110110110
0110111110110111111101000110111010111001100110101100010110010111101110010001101100000110000010010101100011111111000111001110010100
1100000001101001000011110000010100010101101000100110111101011101100110100001100100111100011100011010111111001001000110100001000000
1110011000011011110110101101001011101100100101001101010000110101010110111011011011101000011011110110001001001011010000110010010011
1001000000011100011001110101101101100100110101000000000000100010000011101110101101101011011001000101000001011111111100011100001110
1110100100100010100000111011110001100000111111010110011100000100110110111011000010111010111111001001100010111110101110111011111111
1001001000011010000110010000001000010001110111101011100001000101000111100010111111111100100110010010001010111001010000101011011001
1111110101110001001110001000111011111001000111010001101110000001100111101100100101111101011101010000010010100010011011101100111010
1110110100001000111101101111111111100110101001100110100011110110001100100011001010101011111011100101101110110000010110111010110001
0001100101111111010011010110000000001111000100011111010100101000000100011000111011001101000010111101110001001100000101110011010100
1001010010000011011100110010010100111111000100111101111101000000001100000011101110110001101010011010011111101011010111110011111101
1101001101011111110010100111110111111110010001100011111111001111110101001001010000110111011011001110100010001000000001110110000100
1011001110110010011111010101001110101010010000111111111111100011111100010010000101001100110101011011011011001010100010011001011101
0111000111101011101011100010000000100110010101101110101001110011101011110010110001001011001100101000011001110111010111111101011011
1101101011011011111101100101110011011000111011111001110011101111111100000000101010000001010011010000111110111111000111100100101001
0001000100010101011011011111010010100000100001111010001011001011011111110101101100110010000111001001110111011001110111000000010101
0101001101001101111110111110100100001000100010011110111110000011111110110110000010001011100100110110010101110111011001111111110111
1110110110111101011110110010010011100011011111111010100110111001100110110000100110001111110001110010001010111001101001111110100011
1111100000010100010100101111110010011010001011000111111001010010010101101111001010000000000100010001101001111100011001101011000101
1011101000111101011011111000011111010111110110001010101101111010000110010001011000110111111100111010011010010111001011101100011000
1001110000101001001011110111011000000110001110101010001010110111100111111011110101001000111000101110101001100011000101101111000110
1010100000110010010100010100101111110101000101101110101101111001000010011000010000000001010001001111100011001010011011011010110110
1000100101011110100011000000000111000010001011110010010011110101100000001001111100001111011010111000110011111001101110101100110100
0001001000011110011010110111101100011101101011010000010100110001100000100111111111010011101011001010111000000011011100001111010110
0000111110101010000011100000011110001001001011100101100011010100111111101010010101101111000011000000111100111101011000110001001110
1001100001000110111010111010001110110011000101110000001010011110110100110010010011001101111010101011101001000101110100011001000100
0110111000011111010100100000011111001100101100101000101001110001000101001111001101011001101011101001001101111001000100111011101010
1011100010001100101110011100001111110101000010011001110100010101110101100000111100100000100100001011101110010001000011011101001010
0101101000111101010000110111010010010110110010000011111011010111000000111110110001010001010010100111010000000110101101110111000000
0010100101000010001000101100101010000111110011100001110000111100001000111110100111000011000110000110110010010010011100000101100101
1001101111101101110001101111101000110001100111100001111111101000101111110101101100111000001001001111101101010001111101100110000001
1110100000111001111001111110100111011011000011011110100001000000101010001111100000111110000111111101010111010011000110000011001100
0101101111011011000111001101101010001011100010110100111101111011100110001100000011000111100100010101100011010110011010110000000110
1101011111111001100010101000000110111001110011000100011101100110010001110100010110110011001101110010111110101000011000000011000011
1011101001110000000000011101001011101000011111010011001010000101001000001010110101100110110000011000000000110111100100010000001111
0010011001001011110110111101111100110001111101001110110100100011100011111000111001001100111010000001001011100000000000111010000110
1110001000000000110110001000010000011001001001011000110001111000110000110000101011000001110001111111100000110000000001100101011001
0010100000101100000011011100011110111111111101101000001010101100111111110000111111000001110011101110000011101101011110101111101000
0000111111001110100001000111001010010000110100100011110011110111011010100101000101100000011001110010000011111110001010010101111010
0100010111000011000110010001100010011000001100111111101110010101001000010111110010001110101010110000010111011000011110000111000011
0110100010101100111010001010001011000100011111111001000110110000101110000100101100001100001111011011111111110000111110001010100111
1111110010000101110101100011011010111011101111110011011010111010001110101110001011110000001100101110011111111111000111001001000011
0100001011110001011101010101001100010101010111011001111100111110101101110110110111101011100011101011101111111011110101000000001100
0010111001111001011110111001011001000110011100110110001001000101010001000101111110010000001010010000100110110101000111101011111100
0110110111010011010110110110100111001011101101111101100111100100000001101000110010011000110000000010011101000100100010001111010011
1101100010010000011011111111000001100000001111011111000011001010100100101011001010100111011000001001100000011010111011111100111110
0101110010000100010010110110011011101000100111111010000000000100110010100000011001001001110001000100000110010011100111111101010111
1001111000100000111011111100001011010010011100000101111000000101000110101001111111100111011000110100111101011101000111101001010101
0010111010000110010101001011001000001001011000010111101000010000001101100010010110011100010010011011110111001110111100000011000010
1011111010010101100111000000101011101011001000010001000011011010110000101001010110010110001011111011101001011110100010111100100111
1111100100110011100101110110111101001011111011010011010101001000000111100001110001000111101111011111000011010111000111111001000111
0100000111100011110101110011010101001111111101001100111011111100110011001111110010110001111001110101100111110001110111111001001010
1111000101111110000111011101111001011111010011111000011110000010000101100110000010010001101111010000010010001101111010111011100100
0011000001111001101011011000000011011101110101001101110010010100001100010000011010010110010101111000111110100000110010001011011110

